#pragma once
const unsigned int model_len = 6624;
alignas(8) const unsigned char model_data[] = {
28, 0, 0, 0, 84, 70, 76, 51, 20, 0, 32, 0, 28, 0, 24, 0, 20, 0, 16, 0, 12, 0, 0, 0, 8, 0, 4, 0, 20, 0, 0, 0, 28, 0, 0, 0, 136, 0, 0, 0, 224, 0, 0, 0, 196, 8, 0, 0, 212, 8, 0, 0, 56, 25, 0, 0, 3, 0, 0, 0, 1, 0, 0, 0, 4, 0, 0, 0, 222, 246, 255, 255, 12, 0, 0, 0, 28, 0, 0, 0, 60, 0, 0, 0, 15, 0, 0, 0, 115, 101, 114, 118, 105, 110, 103, 95, 100, 101, 102, 97, 117, 108, 116, 0, 1, 0, 0, 0, 4, 0, 0, 0, 148, 255, 255, 255, 17, 0, 0, 0, 4, 0, 0, 0, 8, 0, 0, 0, 111, 117, 116, 112, 117, 116, 95, 48, 0, 0, 0, 0, 1, 0, 0, 0, 4, 0, 0, 0, 198, 247, 255, 255, 4, 0, 0, 0, 11, 0, 0, 0, 105, 110, 112, 117, 116, 95, 108, 97, 121, 101, 114, 0, 2, 0, 0, 0, 52, 0, 0, 0, 4, 0, 0, 0, 220, 255, 255, 255, 20, 0, 0, 0, 4, 0, 0, 0, 19, 0, 0, 0, 67, 79, 78, 86, 69, 82, 83, 73, 79, 78, 95, 77, 69, 84, 65, 68, 65, 84, 65, 0, 8, 0, 12, 0, 8, 0, 4, 0, 8, 0, 0, 0, 19, 0, 0, 0, 4, 0, 0, 0, 19, 0, 0, 0, 109, 105, 110, 95, 114, 117, 110, 116, 105, 109, 101, 95, 118, 101, 114, 115, 105, 111, 110, 0, 21, 0, 0, 0, 224, 7, 0, 0, 216, 7, 0, 0, 192, 7, 0, 0, 164, 7, 0, 0, 140, 7, 0, 0, 92, 7, 0, 0, 204, 6, 0, 0, 124, 6, 0, 0, 236, 1, 0, 0, 188, 1, 0, 0, 212, 0, 0, 0, 204, 0, 0, 0, 196, 0, 0, 0, 188, 0, 0, 0, 180, 0, 0, 0, 172, 0, 0, 0, 164, 0, 0, 0, 156, 0, 0, 0, 148, 0, 0, 0, 116, 0, 0, 0, 4, 0, 0, 0, 146, 248, 255, 255, 4, 0, 0, 0, 96, 0, 0, 0, 12, 0, 0, 0, 8, 0, 14, 0, 8, 0, 4, 0, 8, 0, 0, 0, 16, 0, 0, 0, 40, 0, 0, 0, 0, 0, 6, 0, 8, 0, 4, 0, 6, 0, 0, 0, 4, 0, 0, 0, 1, 0, 0, 0, 235, 3, 0, 0, 12, 0, 24, 0, 20, 0, 16, 0, 12, 0, 4, 0, 12, 0, 0, 0, 56, 13, 12, 149, 165, 114, 85, 4, 2, 0, 0, 0, 2, 0, 0, 0, 4, 0, 0, 0, 6, 0, 0, 0, 50, 46, 50, 49, 46, 48, 0, 0, 254, 248, 255, 255, 4, 0, 0, 0, 16, 0, 0, 0, 49, 46, 49, 52, 46, 48, 0, 0, 0, 0, 0, 0, 0, 0, 0, 0, 132, 233, 255, 255, 136, 233, 255, 255, 140, 233, 255, 255, 144, 233, 255, 255, 148, 233, 255, 255, 152, 233, 255, 255, 156, 233, 255, 255, 160, 233, 255, 255, 58, 249, 255, 255, 4, 0, 0, 0, 216, 0, 0, 0, 133, 179, 250, 231, 36, 153, 238, 81, 108, 2, 225, 194, 169, 42, 200, 97, 16, 127, 241, 243, 197, 222, 3, 190, 114, 36, 77, 44, 74, 72, 127, 243, 14, 247, 121, 50, 177, 177, 100, 18, 207, 176, 114, 221, 113, 223, 250, 165, 54, 42, 235, 198, 234, 57, 17, 201, 141, 164, 92, 129, 209, 228, 141, 121, 24, 205, 152, 96, 202, 210, 187, 141, 19, 187, 112, 171, 10, 208, 218, 217, 154, 243, 184, 229, 210, 77, 112, 21, 127, 177, 189, 169, 200, 230, 4, 89, 33, 45, 51, 152, 149, 217, 232, 190, 238, 96, 29, 119, 65, 152, 178, 48, 4, 49, 106, 100, 6, 27, 153, 175, 31, 242, 234, 183, 229, 150, 35, 108, 86, 21, 176, 183, 127, 93, 155, 193, 17, 147, 63, 70, 131, 116, 48, 74, 84, 44, 159, 59, 34, 1, 234, 216, 19, 127, 33, 71, 91, 197, 70, 53, 195, 169, 80, 161, 98, 82, 86, 55, 30, 55, 193, 142, 77, 5, 74, 173, 136, 71, 63, 24, 23, 73, 125, 193, 211, 52, 129, 227, 44, 72, 242, 212, 119, 8, 197, 233, 26, 69, 238, 160, 49, 182, 52, 74, 248, 250, 92, 35, 129, 233, 8, 253, 142, 4, 52, 208, 30, 250, 255, 255, 4, 0, 0, 0, 32, 0, 0, 0, 3, 248, 255, 255, 171, 3, 0, 0, 97, 2, 0, 0, 31, 4, 0, 0, 100, 9, 0, 0, 31, 6, 0, 0, 185, 238, 255, 255, 210, 255, 255, 255, 74, 250, 255, 255, 4, 0, 0, 0, 128, 4, 0, 0, 47, 13, 93, 9, 198, 219, 63, 62, 14, 179, 190, 82, 59, 4, 196, 70, 46, 67, 177, 102, 242, 34, 177, 251, 89, 21, 232, 88, 63, 212, 184, 209, 25, 24, 180, 56, 227, 172, 39, 14, 96, 200, 198, 127, 4, 226, 22, 235, 209, 253, 224, 64, 71, 251, 28, 230, 237, 71, 20, 15, 20, 205, 64, 34, 210, 48, 240, 232, 195, 7, 64, 17, 59, 81, 53, 255, 183, 21, 64, 197, 182, 227, 22, 193, 188, 72, 228, 51, 203, 8, 219, 239, 192, 58, 52, 16, 22, 59, 45, 238, 55, 176, 29, 188, 206, 13, 36, 251, 231, 41, 44, 75, 116, 222, 215, 118, 195, 65, 47, 217, 232, 176, 36, 244, 199, 26, 205, 249, 42, 200, 207, 94, 178, 224, 7, 50, 237, 52, 39, 127, 28, 211, 230, 64, 204, 207, 65, 48, 21, 82, 246, 170, 245, 26, 10, 229, 184, 3, 245, 244, 90, 190, 216, 123, 32, 247, 195, 224, 40, 236, 7, 21, 176, 73, 66, 212, 100, 56, 81, 228, 151, 69, 252, 35, 222, 205, 39, 62, 54, 45, 46, 228, 183, 253, 204, 68, 60, 177, 237, 82, 37, 243, 198, 85, 139, 163, 189, 208, 127, 53, 222, 56, 23, 41, 6, 35, 27, 8, 237, 127, 40, 169, 226, 52, 62, 42, 112, 108, 68, 165, 216, 208, 8, 67, 45, 66, 33, 95, 70, 231, 124, 204, 219, 254, 49, 186, 10, 175, 13, 252, 68, 30, 16, 208, 52, 215, 20, 230, 75, 127, 251, 252, 68, 104, 244, 217, 39, 21, 217, 18, 96, 18, 214, 195, 240, 192, 247, 42, 67, 52, 57, 31, 38, 126, 198, 239, 165, 13, 32, 228, 203, 28, 243, 64, 185, 15, 22, 218, 7, 251, 8, 14, 11, 79, 45, 174, 237, 240, 58, 189, 240, 176, 57, 22, 222, 176, 248, 190, 144, 44, 49, 237, 205, 163, 38, 181, 229, 32, 181, 22, 243, 195, 244, 181, 145, 213, 230, 215, 150, 227, 127, 100, 8, 70, 18, 184, 50, 203, 93, 29, 216, 254, 58, 21, 199, 238, 225, 50, 226, 224, 58, 222, 214, 196, 217, 217, 247, 76, 230, 245, 28, 35, 20, 192, 21, 55, 46, 99, 218, 96, 16, 227, 220, 45, 241, 217, 75, 72, 231, 204, 231, 244, 75, 12, 221, 251, 205, 13, 55, 197, 238, 50, 174, 127, 17, 21, 199, 8, 88, 47, 208, 52, 11, 7, 55, 14, 230, 216, 50, 39, 229, 31, 16, 17, 253, 222, 235, 31, 14, 34, 2, 222, 87, 76, 84, 90, 39, 42, 16, 80, 77, 78, 255, 49, 54, 36, 81, 37, 39, 84, 3, 50, 231, 194, 34, 42, 1, 204, 37, 219, 20, 254, 242, 192, 48, 222, 228, 31, 162, 210, 243, 190, 111, 189, 196, 89, 195, 238, 254, 210, 207, 192, 5, 75, 52, 195, 28, 216, 201, 218, 232, 28, 59, 185, 9, 233, 92, 234, 91, 127, 24, 29, 38, 66, 40, 48, 199, 187, 14, 14, 189, 37, 14, 2, 54, 123, 222, 200, 240, 26, 67, 47, 173, 102, 206, 217, 193, 107, 245, 38, 77, 112, 194, 3, 60, 160, 56, 78, 6, 239, 230, 18, 16, 182, 57, 53, 67, 63, 231, 249, 71, 250, 183, 15, 49, 86, 209, 6, 66, 74, 3, 212, 69, 127, 41, 170, 180, 185, 219, 38, 64, 79, 57, 223, 41, 231, 69, 237, 11, 254, 185, 196, 225, 238, 8, 51, 208, 247, 176, 187, 24, 74, 93, 5, 6, 15, 23, 13, 9, 79, 41, 245, 244, 22, 176, 21, 19, 237, 32, 230, 251, 48, 57, 25, 26, 61, 31, 30, 175, 89, 24, 8, 255, 232, 61, 245, 5, 127, 61, 251, 202, 21, 49, 12, 75, 255, 211, 15, 34, 222, 246, 196, 243, 97, 221, 68, 7, 204, 24, 68, 204, 226, 205, 250, 39, 230, 46, 6, 199, 21, 251, 188, 10, 57, 218, 20, 191, 90, 226, 62, 234, 39, 236, 251, 66, 12, 33, 70, 5, 50, 218, 216, 215, 51, 0, 28, 63, 184, 35, 35, 204, 9, 202, 223, 201, 246, 2, 217, 51, 41, 2, 230, 56, 211, 71, 43, 87, 5, 235, 173, 236, 39, 19, 76, 28, 127, 5, 240, 46, 76, 245, 77, 212, 195, 218, 76, 23, 53, 200, 30, 107, 235, 254, 72, 94, 89, 211, 53, 25, 131, 225, 29, 106, 103, 193, 39, 23, 4, 40, 70, 83, 100, 201, 11, 210, 201, 47, 64, 3, 196, 206, 25, 236, 194, 47, 16, 221, 242, 216, 49, 16, 56, 116, 42, 237, 18, 60, 22, 43, 154, 50, 94, 226, 52, 25, 40, 241, 244, 127, 5, 75, 39, 31, 57, 160, 85, 217, 247, 80, 75, 40, 104, 176, 26, 210, 236, 147, 4, 28, 156, 196, 252, 220, 181, 245, 188, 187, 200, 193, 223, 3, 50, 203, 174, 47, 252, 172, 189, 13, 210, 35, 108, 44, 219, 150, 123, 94, 226, 193, 98, 80, 89, 241, 207, 13, 69, 92, 60, 29, 147, 106, 154, 43, 248, 176, 7, 127, 10, 156, 23, 15, 205, 28, 101, 50, 16, 240, 33, 253, 51, 228, 255, 56, 212, 220, 18, 214, 234, 221, 251, 20, 67, 21, 127, 25, 216, 225, 22, 46, 52, 231, 224, 33, 9, 29, 46, 54, 39, 206, 235, 188, 48, 247, 34, 82, 210, 245, 49, 222, 223, 42, 26, 235, 48, 237, 248, 181, 9, 239, 27, 73, 249, 31, 96, 21, 233, 9, 229, 37, 234, 212, 21, 223, 10, 209, 48, 214, 179, 105, 202, 63, 112, 158, 85, 46, 34, 113, 175, 17, 57, 155, 15, 84, 248, 120, 163, 248, 26, 214, 61, 109, 134, 28, 219, 2, 4, 206, 143, 71, 229, 14, 82, 2, 241, 240, 129, 21, 211, 80, 213, 164, 18, 231, 19, 238, 151, 173, 80, 65, 39, 54, 8, 133, 169, 24, 136, 183, 25, 37, 158, 238, 30, 183, 220, 165, 100, 212, 155, 25, 22, 241, 170, 16, 30, 211, 191, 98, 241, 242, 189, 129, 96, 171, 187, 33, 253, 53, 140, 174, 228, 129, 165, 250, 156, 100, 167, 149, 210, 173, 82, 28, 197, 155, 1, 8, 132, 252, 89, 186, 210, 198, 22, 156, 156, 215, 232, 252, 39, 120, 19, 67, 70, 91, 94, 218, 236, 142, 92, 18, 179, 6, 189, 153, 189, 0, 224, 37, 173, 203, 238, 249, 19, 222, 41, 238, 32, 42, 182, 37, 212, 72, 28, 252, 206, 253, 231, 108, 199, 32, 127, 0, 2, 55, 53, 83, 33, 88, 72, 25, 249, 67, 30, 69, 250, 62, 62, 53, 51, 70, 57, 83, 25, 174, 37, 0, 19, 248, 213, 27, 43, 225, 15, 189, 209, 197, 14, 33, 205, 29, 85, 50, 172, 61, 56, 21, 48, 54, 33, 33, 175, 192, 76, 214, 254, 255, 255, 4, 0, 0, 0, 64, 0, 0, 0, 195, 244, 255, 255, 255, 247, 255, 255, 79, 243, 255, 255, 72, 244, 255, 255, 226, 27, 0, 0, 115, 244, 255, 255, 111, 245, 255, 255, 59, 247, 255, 255, 83, 248, 255, 255, 52, 250, 255, 255, 194, 19, 0, 0, 154, 19, 0, 0, 232, 250, 255, 255, 133, 253, 255, 255, 52, 247, 255, 255, 33, 247, 255, 255, 34, 255, 255, 255, 4, 0, 0, 0, 128, 0, 0, 0, 129, 209, 43, 192, 171, 254, 18, 38, 6, 89, 19, 108, 1, 202, 6, 178, 226, 254, 154, 12, 67, 57, 67, 7, 86, 49, 200, 222, 183, 129, 141, 3, 192, 192, 192, 240, 127, 199, 150, 18, 142, 192, 119, 227, 197, 185, 57, 214, 229, 213, 129, 20, 85, 55, 227, 82, 77, 191, 3, 145, 199, 146, 250, 82, 32, 45, 47, 127, 239, 88, 255, 183, 168, 211, 152, 233, 117, 27, 152, 21, 143, 236, 98, 189, 247, 129, 169, 117, 132, 83, 189, 95, 191, 53, 126, 127, 9, 106, 57, 110, 207, 115, 23, 71, 127, 97, 69, 126, 122, 163, 113, 112, 250, 2, 139, 129, 69, 137, 142, 176, 209, 58, 105, 91, 232, 63, 159, 207, 174, 255, 255, 255, 4, 0, 0, 0, 32, 0, 0, 0, 221, 3, 0, 0, 0, 0, 0, 0, 168, 6, 0, 0, 28, 2, 0, 0, 0, 0, 0, 0, 121, 254, 255, 255, 216, 253, 255, 255, 30, 6, 0, 0, 218, 255, 255, 255, 4, 0, 0, 0, 8, 0, 0, 0, 225, 47, 129, 232, 37, 75, 66, 164, 238, 255, 255, 255, 4, 0, 0, 0, 4, 0, 0, 0, 219, 254, 255, 255, 0, 0, 6, 0, 8, 0, 4, 0, 6, 0, 0, 0, 4, 0, 0, 0, 8, 0, 0, 0, 1, 0, 0, 0, 2, 0, 0, 0, 132, 240, 255, 255, 136, 240, 255, 255, 15, 0, 0, 0, 77, 76, 73, 82, 32, 67, 111, 110, 118, 101, 114, 116, 101, 100, 46, 0, 1, 0, 0, 0, 20, 0, 0, 0, 0, 0, 14, 0, 24, 0, 20, 0, 16, 0, 12, 0, 8, 0, 4, 0, 14, 0, 0, 0, 20, 0, 0, 0, 28, 0, 0, 0, 80, 2, 0, 0, 84, 2, 0, 0, 88, 2, 0, 0, 4, 0, 0, 0, 109, 97, 105, 110, 0, 0, 0, 0, 8, 0, 0, 0, 236, 1, 0, 0, 136, 1, 0, 0, 56, 1, 0, 0, 244, 0, 0, 0, 176, 0, 0, 0, 108, 0, 0, 0, 52, 0, 0, 0, 16, 0, 0, 0, 0, 0, 10, 0, 16, 0, 12, 0, 8, 0, 4, 0, 10, 0, 0, 0, 12, 0, 0, 0, 16, 0, 0, 0, 4, 0, 0, 0, 1, 0, 0, 0, 17, 0, 0, 0, 1, 0, 0, 0, 16, 0, 0, 0, 90, 255, 255, 255, 20, 0, 0, 0, 0, 0, 0, 8, 16, 0, 0, 0, 20, 0, 0, 0, 3, 0, 0, 0, 68, 241, 255, 255, 1, 0, 0, 0, 16, 0, 0, 0, 3, 0, 0, 0, 15, 0, 0, 0, 3, 0, 0, 0, 2, 0, 0, 0, 2, 255, 255, 255, 28, 0, 0, 0, 0, 0, 0, 8, 28, 0, 0, 0, 32, 0, 0, 0, 3, 0, 0, 0, 0, 0, 6, 0, 8, 0, 7, 0, 6, 0, 0, 0, 0, 0, 0, 1, 1, 0, 0, 0, 15, 0, 0, 0, 3, 0, 0, 0, 14, 0, 0, 0, 5, 0, 0, 0, 4, 0, 0, 0, 206, 255, 255, 255, 20, 0, 0, 0, 0, 0, 0, 27, 16, 0, 0, 0, 20, 0, 0, 0, 2, 0, 0, 0, 184, 241, 255, 255, 1, 0, 0, 0, 14, 0, 0, 0, 2, 0, 0, 0, 13, 0, 0, 0, 1, 0, 0, 0, 0, 0, 14, 0, 24, 0, 20, 0, 16, 0, 12, 0, 11, 0, 4, 0, 14, 0, 0, 0, 20, 0, 0, 0, 0, 0, 0, 5, 36, 0, 0, 0, 40, 0, 0, 0, 1, 0, 0, 0, 114, 255, 255, 255, 2, 0, 0, 0, 2, 0, 0, 0, 2, 0, 0, 0, 2, 0, 0, 0, 0, 0, 0, 1, 1, 0, 0, 0, 13, 0, 0, 0, 1, 0, 0, 0, 12, 0, 0, 0, 98, 255, 255, 255, 16, 0, 0, 0, 0, 0, 0, 1, 24, 0, 0, 0, 28, 0, 0, 0, 84, 255, 255, 255, 0, 0, 0, 1, 1, 0, 0, 0, 1, 0, 0, 0, 1, 0, 0, 0, 12, 0, 0, 0, 3, 0, 0, 0, 11, 0, 0, 0, 7, 0, 0, 0, 6, 0, 0, 0, 0, 0, 14, 0, 26, 0, 20, 0, 16, 0, 12, 0, 11, 0, 4, 0, 14, 0, 0, 0, 36, 0, 0, 0, 0, 0, 0, 5, 52, 0, 0, 0, 56, 0, 0, 0, 1, 0, 0, 0, 0, 0, 14, 0, 24, 0, 23, 0, 16, 0, 12, 0, 8, 0, 4, 0, 14, 0, 0, 0, 2, 0, 0, 0, 2, 0, 0, 0, 2, 0, 0, 0, 2, 0, 0, 0, 0, 0, 0, 1, 1, 0, 0, 0, 11, 0, 0, 0, 1, 0, 0, 0, 10, 0, 0, 0, 0, 0, 14, 0, 20, 0, 0, 0, 16, 0, 12, 0, 11, 0, 4, 0, 14, 0, 0, 0, 28, 0, 0, 0, 0, 0, 0, 1, 36, 0, 0, 0, 40, 0, 0, 0, 12, 0, 16, 0, 0, 0, 12, 0, 8, 0, 7, 0, 12, 0, 0, 0, 0, 0, 0, 1, 1, 0, 0, 0, 1, 0, 0, 0, 1, 0, 0, 0, 10, 0, 0, 0, 3, 0, 0, 0, 0, 0, 0, 0, 9, 0, 0, 0, 8, 0, 0, 0, 1, 0, 0, 0, 17, 0, 0, 0, 1, 0, 0, 0, 0, 0, 0, 0, 18, 0, 0, 0, 68, 13, 0, 0, 184, 12, 0, 0, 56, 12, 0, 0, 196, 11, 0, 0, 232, 10, 0, 0, 36, 10, 0, 0, 160, 8, 0, 0, 108, 7, 0, 0, 80, 6, 0, 0, 124, 5, 0, 0, 144, 4, 0, 0, 244, 3, 0, 0, 0, 3, 0, 0, 100, 2, 0, 0, 208, 1, 0, 0, 28, 1, 0, 0, 128, 0, 0, 0, 4, 0, 0, 0, 26, 243, 255, 255, 0, 0, 0, 1, 24, 0, 0, 0, 32, 0, 0, 0, 60, 0, 0, 0, 18, 0, 0, 0, 0, 0, 0, 9, 80, 0, 0, 0, 2, 0, 0, 0, 255, 255, 255, 255, 1, 0, 0, 0, 252, 242, 255, 255, 8, 0, 0, 0, 16, 0, 0, 0, 1, 0, 0, 0, 128, 255, 255, 255, 255, 255, 255, 255, 1, 0, 0, 0, 0, 0, 128, 59, 27, 0, 0, 0, 83, 116, 97, 116, 101, 102, 117, 108, 80, 97, 114, 116, 105, 116, 105, 111, 110, 101, 100, 67, 97, 108, 108, 95, 49, 58, 48, 0, 2, 0, 0, 0, 1, 0, 0, 0, 1, 0, 0, 0, 146, 243, 255, 255, 0, 0, 0, 1, 24, 0, 0, 0, 32, 0, 0, 0, 60, 0, 0, 0, 17, 0, 0, 0, 0, 0, 0, 9, 112, 0, 0, 0, 2, 0, 0, 0, 255, 255, 255, 255, 1, 0, 0, 0, 116, 243, 255, 255, 8, 0, 0, 0, 16, 0, 0, 0, 1, 0, 0, 0, 229, 255, 255, 255, 255, 255, 255, 255, 1, 0, 0, 0, 46, 17, 131, 59, 56, 0, 0, 0, 115, 101, 113, 117, 101, 110, 116, 105, 97, 108, 95, 49, 47, 100, 101, 110, 115, 101, 95, 49, 95, 50, 47, 77, 97, 116, 77, 117, 108, 59, 115, 101, 113, 117, 101, 110, 116, 105, 97, 108, 95, 49, 47, 100, 101, 110, 115, 101, 95, 49, 95, 50, 47, 65, 100, 100, 0, 0, 0, 0, 2, 0, 0, 0, 1, 0, 0, 0, 1, 0, 0, 0, 42, 244, 255, 255, 0, 0, 0, 1, 24, 0, 0, 0, 32, 0, 0, 0, 60, 0, 0, 0, 16, 0, 0, 0, 0, 0, 0, 9, 136, 0, 0, 0, 2, 0, 0, 0, 255, 255, 255, 255, 8, 0, 0, 0, 12, 244, 255, 255, 8, 0, 0, 0, 16, 0, 0, 0, 1, 0, 0, 0, 128, 255, 255, 255, 255, 255, 255, 255, 1, 0, 0, 0, 222, 205, 172, 59, 82, 0, 0, 0, 115, 101, 113, 117, 101, 110, 116, 105, 97, 108, 95, 49, 47, 100, 101, 110, 115, 101, 95, 49, 47, 77, 97, 116, 77, 117, 108, 59, 115, 101, 113, 117, 101, 110, 116, 105, 97, 108, 95, 49, 47, 100, 101, 110, 115, 101, 95, 49, 47, 82, 101, 108, 117, 59, 115, 101, 113, 117, 101, 110, 116, 105, 97, 108, 95, 49, 47, 100, 101, 110, 115, 101, 95, 49, 47, 66, 105, 97, 115, 65, 100, 100, 0, 0, 2, 0, 0, 0, 1, 0, 0, 0, 8, 0, 0, 0, 218, 244, 255, 255, 0, 0, 0, 1, 24, 0, 0, 0, 32, 0, 0, 0, 64, 0, 0, 0, 15, 0, 0, 0, 0, 0, 0, 9, 104, 0, 0, 0, 2, 0, 0, 0, 255, 255, 255, 255, 16, 0, 0, 0, 188, 244, 255, 255, 8, 0, 0, 0, 20, 0, 0, 0, 1, 0, 0, 0, 128, 255, 255, 255, 255, 255, 255, 255, 0, 0, 0, 0, 1, 0, 0, 0, 156, 38, 173, 59, 44, 0, 0, 0, 115, 101, 113, 117, 101, 110, 116, 105, 97, 108, 95, 49, 47, 103, 108, 111, 98, 97, 108, 95, 97, 118, 101, 114, 97, 103, 101, 95, 112, 111, 111, 108, 105, 110, 103, 50, 100, 95, 49, 47, 77, 101, 97, 110, 0, 0, 0, 0, 2, 0, 0, 0, 1, 0, 0, 0, 16, 0, 0, 0, 106, 245, 255, 255, 0, 0, 0, 1, 24, 0, 0, 0, 40, 0, 0, 0, 68, 0, 0, 0, 14, 0, 0, 0, 0, 0, 0, 9, 104, 0, 0, 0, 4, 0, 0, 0, 255, 255, 255, 255, 12, 0, 0, 0, 12, 0, 0, 0, 16, 0, 0, 0, 84, 245, 255, 255, 8, 0, 0, 0, 16, 0, 0, 0, 1, 0, 0, 0, 128, 255, 255, 255, 255, 255, 255, 255, 1, 0, 0, 0, 191, 231, 242, 59, 40, 0, 0, 0, 115, 101, 113, 117, 101, 110, 116, 105, 97, 108, 95, 49, 47, 109, 97, 120, 95, 112, 111, 111, 108, 105, 110, 103, 50, 100, 95, 49, 95, 50, 47, 77, 97, 120, 80, 111, 111, 108, 50, 100, 0, 0, 0, 0, 4, 0, 0, 0, 1, 0, 0, 0, 12, 0, 0, 0, 12, 0, 0, 0, 16, 0, 0, 0, 2, 246, 255, 255, 0, 0, 0, 1, 24, 0, 0, 0, 40, 0, 0, 0, 68, 0, 0, 0, 13, 0, 0, 0, 0, 0, 0, 9, 192, 0, 0, 0, 4, 0, 0, 0, 255, 255, 255, 255, 24, 0, 0, 0, 24, 0, 0, 0, 16, 0, 0, 0, 236, 245, 255, 255, 8, 0, 0, 0, 16, 0, 0, 0, 1, 0, 0, 0, 128, 255, 255, 255, 255, 255, 255, 255, 1, 0, 0, 0, 191, 231, 242, 59, 129, 0, 0, 0, 115, 101, 113, 117, 101, 110, 116, 105, 97, 108, 95, 49, 47, 99, 111, 110, 118, 50, 100, 95, 49, 95, 50, 47, 82, 101, 108, 117, 59, 115, 101, 113, 117, 101, 110, 116, 105, 97, 108, 95, 49, 47, 99, 111, 110, 118, 50, 100, 95, 49, 95, 50, 47, 66, 105, 97, 115, 65, 100, 100, 59, 115, 101, 113, 117, 101, 110, 116, 105, 97, 108, 95, 49, 47, 99, 111, 110, 118, 50, 100, 95, 49, 95, 50, 47, 99, 111, 110, 118, 111, 108, 117, 116, 105, 111, 110, 59, 115, 101, 113, 117, 101, 110, 116, 105, 97, 108, 95, 49, 47, 99, 111, 110, 118, 50, 100, 95, 49, 95, 50, 47, 83, 113, 117, 101, 101, 122, 101, 49, 0, 0, 0, 4, 0, 0, 0, 1, 0, 0, 0, 24, 0, 0, 0, 24, 0, 0, 0, 16, 0, 0, 0, 242, 246, 255, 255, 0, 0, 0, 1, 24, 0, 0, 0, 40, 0, 0, 0, 72, 0, 0, 0, 12, 0, 0, 0, 0, 0, 0, 9, 104, 0, 0, 0, 4, 0, 0, 0, 255, 255, 255, 255, 24, 0, 0, 0, 24, 0, 0, 0, 8, 0, 0, 0, 220, 246, 255, 255, 8, 0, 0, 0, 20, 0, 0, 0, 1, 0, 0, 0, 128, 255, 255, 255, 255, 255, 255, 255, 0, 0, 0, 0, 1, 0, 0, 0, 73, 36, 157, 59, 38, 0, 0, 0, 115, 101, 113, 117, 101, 110, 116, 105, 97, 108, 95, 49, 47, 109, 97, 120, 95, 112, 111, 111, 108, 105, 110, 103, 50, 100, 95, 49, 47, 77, 97, 120, 80, 111, 111, 108, 50, 100, 0, 0, 4, 0, 0, 0, 1, 0, 0, 0, 24, 0, 0, 0, 24, 0, 0, 0, 8, 0, 0, 0, 138, 247, 255, 255, 0, 0, 0, 1, 24, 0, 0, 0, 40, 0, 0, 0, 68, 0, 0, 0, 11, 0, 0, 0, 0, 0, 0, 9, 184, 0, 0, 0, 4, 0, 0, 0, 255, 255, 255, 255, 48, 0, 0, 0, 48, 0, 0, 0, 8, 0, 0, 0, 116, 247, 255, 255, 8, 0, 0, 0, 16, 0, 0, 0, 1, 0, 0, 0, 128, 255, 255, 255, 255, 255, 255, 255, 1, 0, 0, 0, 73, 36, 157, 59, 121, 0, 0, 0, 115, 101, 113, 117, 101, 110, 116, 105, 97, 108, 95, 49, 47, 99, 111, 110, 118, 50, 100, 95, 49, 47, 82, 101, 108, 117, 59, 115, 101, 113, 117, 101, 110, 116, 105, 97, 108, 95, 49, 47, 99, 111, 110, 118, 50, 100, 95, 49, 47, 66, 105, 97, 115, 65, 100, 100, 59, 115, 101, 113, 117, 101, 110, 116, 105, 97, 108, 95, 49, 47, 99, 111, 110, 118, 50, 100, 95, 49, 47, 99, 111, 110, 118, 111, 108, 117, 116, 105, 111, 110, 59, 115, 101, 113, 117, 101, 110, 116, 105, 97, 108, 95, 49, 47, 99, 111, 110, 118, 50, 100, 95, 49, 47, 83, 113, 117, 101, 101, 122, 101, 49, 0, 0, 0, 4, 0, 0, 0, 1, 0, 0, 0, 48, 0, 0, 0, 48, 0, 0, 0, 8, 0, 0, 0, 250, 248, 255, 255, 0, 0, 0, 1, 20, 0, 0, 0, 136, 0, 0, 0, 10, 0, 0, 0, 0, 0, 0, 9, 164, 0, 0, 0, 68, 248, 255, 255, 8, 0, 0, 0, 76, 0, 0, 0, 8, 0, 0, 0, 0, 0, 0, 0, 0, 0, 0, 0, 0, 0, 0, 0, 0, 0, 0, 0, 0, 0, 0, 0, 0, 0, 0, 0, 0, 0, 0, 0, 0, 0, 0, 0, 0, 0, 0, 0, 0, 0, 0, 0, 0, 0, 0, 0, 0, 0, 0, 0, 0, 0, 0, 0, 0, 0, 0, 0, 0, 0, 0, 0, 0, 0, 0, 0, 0, 0, 0, 0, 8, 0, 0, 0, 253, 184, 12, 59, 31, 69, 16, 59, 119, 77, 1, 59, 74, 109, 10, 59, 58, 250, 16, 59, 171, 81, 4, 59, 33, 17, 247, 58, 140, 82, 22, 59, 33, 0, 0, 0, 115, 101, 113, 117, 101, 110, 116, 105, 97, 108, 95, 49, 47, 99, 111, 110, 118, 50, 100, 95, 49, 47, 99, 111, 110, 118, 111, 108, 117, 116, 105, 111, 110, 0, 0, 0, 4, 0, 0, 0, 8, 0, 0, 0, 3, 0, 0, 0, 3, 0, 0, 0, 3, 0, 0, 0, 202, 249, 255, 255, 0, 0, 0, 1, 20, 0, 0, 0, 132, 0, 0, 0, 9, 0, 0, 0, 0, 0, 0, 2, 248, 0, 0, 0, 20, 249, 255, 255, 8, 0, 0, 0, 72, 0, 0, 0, 8, 0, 0, 0, 0, 0, 0, 0, 0, 0, 0, 0, 0, 0, 0, 0, 0, 0, 0, 0, 0, 0, 0, 0, 0, 0, 0, 0, 0, 0, 0, 0, 0, 0, 0, 0, 0, 0, 0, 0, 0, 0, 0, 0, 0, 0, 0, 0, 0, 0, 0, 0, 0, 0, 0, 0, 0, 0, 0, 0, 0, 0, 0, 0, 0, 0, 0, 0, 8, 0, 0, 0, 68, 70, 13, 55, 246, 213, 16, 55, 71, 207, 1, 55, 67, 248, 10, 55, 198, 139, 17, 55, 130, 214, 4, 55, 43, 9, 248, 54, 118, 233, 22, 55, 120, 0, 0, 0, 115, 101, 113, 117, 101, 110, 116, 105, 97, 108, 95, 49, 47, 99, 111, 110, 118, 50, 100, 95, 49, 47, 82, 101, 108, 117, 59, 115, 101, 113, 117, 101, 110, 116, 105, 97, 108, 95, 49, 47, 99, 111, 110, 118, 50, 100, 95, 49, 47, 66, 105, 97, 115, 65, 100, 100, 59, 115, 101, 113, 117, 101, 110, 116, 105, 97, 108, 95, 49, 47, 99, 111, 110, 118, 50, 100, 95, 49, 47, 99, 111, 110, 118, 111, 108, 117, 116, 105, 111, 110, 59, 115, 101, 113, 117, 101, 110, 116, 105, 97, 108, 95, 49, 47, 99, 111, 110, 118, 50, 100, 95, 49, 47, 83, 113, 117, 101, 101, 122, 101, 0, 0, 0, 0, 1, 0, 0, 0, 8, 0, 0, 0, 226, 250, 255, 255, 0, 0, 0, 1, 20, 0, 0, 0, 232, 0, 0, 0, 8, 0, 0, 0, 0, 0, 0, 9, 4, 1, 0, 0, 44, 250, 255, 255, 8, 0, 0, 0, 140, 0, 0, 0, 16, 0, 0, 0, 0, 0, 0, 0, 0, 0, 0, 0, 0, 0, 0, 0, 0, 0, 0, 0, 0, 0, 0, 0, 0, 0, 0, 0, 0, 0, 0, 0, 0, 0, 0, 0, 0, 0, 0, 0, 0, 0, 0, 0, 0, 0, 0, 0, 0, 0, 0, 0, 0, 0, 0, 0, 0, 0, 0, 0, 0, 0, 0, 0, 0, 0, 0, 0, 0, 0, 0, 0, 0, 0, 0, 0, 0, 0, 0, 0, 0, 0, 0, 0, 0, 0, 0, 0, 0, 0, 0, 0, 0, 0, 0, 0, 0, 0, 0, 0, 0, 0, 0, 0, 0, 0, 0, 0, 0, 0, 0, 0, 0, 0, 0, 0, 0, 0, 0, 0, 0, 0, 0, 0, 0, 0, 0, 0, 0, 0, 0, 0, 0, 0, 0, 0, 16, 0, 0, 0, 118, 143, 9, 59, 186, 17, 5, 59, 108, 148, 237, 58, 139, 105, 231, 58, 101, 231, 245, 58, 226, 160, 15, 59, 20, 162, 9, 59, 84, 3, 233, 58, 45, 29, 31, 59, 61, 117, 13, 59, 149, 4, 234, 58, 149, 228, 192, 58, 151, 211, 46, 59, 97, 1, 181, 58, 218, 15, 179, 58, 193, 249, 7, 59, 35, 0, 0, 0, 115, 101, 113, 117, 101, 110, 116, 105, 97, 108, 95, 49, 47, 99, 111, 110, 118, 50, 100, 95, 49, 95, 50, 47, 99, 111, 110, 118, 111, 108, 117, 116, 105, 111, 110, 0, 4, 0, 0, 0, 16, 0, 0, 0, 3, 0, 0, 0, 3, 0, 0, 0, 8, 0, 0, 0, 18, 252, 255, 255, 0, 0, 0, 1, 20, 0, 0, 0, 228, 0, 0, 0, 7, 0, 0, 0, 0, 0, 0, 2, 96, 1, 0, 0, 92, 251, 255, 255, 8, 0, 0, 0, 136, 0, 0, 0, 16, 0, 0, 0, 0, 0, 0, 0, 0, 0, 0, 0, 0, 0, 0, 0, 0, 0, 0, 0, 0, 0, 0, 0, 0, 0, 0, 0, 0, 0, 0, 0, 0, 0, 0, 0, 0, 0, 0, 0, 0, 0, 0, 0, 0, 0, 0, 0, 0, 0, 0, 0, 0, 0, 0, 0, 0, 0, 0, 0, 0, 0, 0, 0, 0, 0, 0, 0, 0, 0, 0, 0, 0, 0, 0, 0, 0, 0, 0, 0, 0, 0, 0, 0, 0, 0, 0, 0, 0, 0, 0, 0, 0, 0, 0, 0, 0, 0, 0, 0, 0, 0, 0, 0, 0, 0, 0, 0, 0, 0, 0, 0, 0, 0, 0, 0, 0, 0, 0, 0, 0, 0, 0, 0, 0, 0, 0, 0, 0, 0, 0, 0, 16, 0, 0, 0, 246, 224, 40, 55, 119, 93, 35, 55, 179, 213, 17, 55, 135, 12, 14, 55, 196, 241, 22, 55, 12, 84, 48, 55, 209, 247, 40, 55, 17, 8, 15, 55, 228, 86, 67, 55, 230, 169, 45, 55, 251, 165, 15, 55, 13, 207, 236, 54, 22, 161, 86, 55, 1, 55, 222, 54, 52, 212, 219, 54, 227, 238, 38, 55, 128, 0, 0, 0, 115, 101, 113, 117, 101, 110, 116, 105, 97, 108, 95, 49, 47, 99, 111, 110, 118, 50, 100, 95, 49, 95, 50, 47, 82, 101, 108, 117, 59, 115, 101, 113, 117, 101, 110, 116, 105, 97, 108, 95, 49, 47, 99, 111, 110, 118, 50, 100, 95, 49, 95, 50, 47, 66, 105, 97, 115, 65, 100, 100, 59, 115, 101, 113, 117, 101, 110, 116, 105, 97, 108, 95, 49, 47, 99, 111, 110, 118, 50, 100, 95, 49, 95, 50, 47, 99, 111, 110, 118, 111, 108, 117, 116, 105, 111, 110, 59, 115, 101, 113, 117, 101, 110, 116, 105, 97, 108, 95, 49, 47, 99, 111, 110, 118, 50, 100, 95, 49, 95, 50, 47, 83, 113, 117, 101, 101, 122, 101, 0, 0, 0, 0, 1, 0, 0, 0, 16, 0, 0, 0, 146, 253, 255, 255, 0, 0, 0, 1, 20, 0, 0, 0, 136, 0, 0, 0, 6, 0, 0, 0, 0, 0, 0, 9, 156, 0, 0, 0, 220, 252, 255, 255, 8, 0, 0, 0, 76, 0, 0, 0, 8, 0, 0, 0, 0, 0, 0, 0, 0, 0, 0, 0, 0, 0, 0, 0, 0, 0, 0, 0, 0, 0, 0, 0, 0, 0, 0, 0, 0, 0, 0, 0, 0, 0, 0, 0, 0, 0, 0, 0, 0, 0, 0, 0, 0, 0, 0, 0, 0, 0, 0, 0, 0, 0, 0, 0, 0, 0, 0, 0, 0, 0, 0, 0, 0, 0, 0, 0, 0, 0, 0, 0, 8, 0, 0, 0, 66, 15, 125, 59, 91, 255, 99, 59, 197, 145, 135, 59, 228, 40, 120, 59, 236, 179, 127, 59, 147, 149, 109, 59, 202, 16, 131, 59, 252, 73, 130, 59, 27, 0, 0, 0, 115, 101, 113, 117, 101, 110, 116, 105, 97, 108, 95, 49, 47, 100, 101, 110, 115, 101, 95, 49, 47, 77, 97, 116, 77, 117, 108, 0, 2, 0, 0, 0, 8, 0, 0, 0, 16, 0, 0, 0, 82, 254, 255, 255, 0, 0, 0, 1, 20, 0, 0, 0, 136, 0, 0, 0, 5, 0, 0, 0, 0, 0, 0, 2, 184, 0, 0, 0, 156, 253, 255, 255, 8, 0, 0, 0, 76, 0, 0, 0, 8, 0, 0, 0, 0, 0, 0, 0, 0, 0, 0, 0, 0, 0, 0, 0, 0, 0, 0, 0, 0, 0, 0, 0, 0, 0, 0, 0, 0, 0, 0, 0, 0, 0, 0, 0, 0, 0, 0, 0, 0, 0, 0, 0, 0, 0, 0, 0, 0, 0, 0, 0, 0, 0, 0, 0, 0, 0, 0, 0, 0, 0, 0, 0, 0, 0, 0, 0, 0, 0, 0, 0, 8, 0, 0, 0, 122, 41, 171, 55, 243, 53, 154, 55, 233, 99, 183, 55, 15, 217, 167, 55, 39, 243, 172, 55, 233, 177, 160, 55, 58, 76, 177, 55, 75, 63, 176, 55, 54, 0, 0, 0, 115, 101, 113, 117, 101, 110, 116, 105, 97, 108, 95, 49, 47, 100, 101, 110, 115, 101, 95, 49, 47, 82, 101, 108, 117, 59, 115, 101, 113, 117, 101, 110, 116, 105, 97, 108, 95, 49, 47, 100, 101, 110, 115, 101, 95, 49, 47, 66, 105, 97, 115, 65, 100, 100, 0, 0, 1, 0, 0, 0, 8, 0, 0, 0, 42, 255, 255, 255, 0, 0, 0, 1, 20, 0, 0, 0, 52, 0, 0, 0, 4, 0, 0, 0, 0, 0, 0, 9, 76, 0, 0, 0, 116, 254, 255, 255, 8, 0, 0, 0, 20, 0, 0, 0, 1, 0, 0, 0, 0, 0, 0, 0, 0, 0, 0, 0, 0, 0, 0, 0, 1, 0, 0, 0, 146, 112, 237, 59, 29, 0, 0, 0, 115, 101, 113, 117, 101, 110, 116, 105, 97, 108, 95, 49, 47, 100, 101, 110, 115, 101, 95, 49, 95, 50, 47, 77, 97, 116, 77, 117, 108, 0, 0, 0, 2, 0, 0, 0, 1, 0, 0, 0, 8, 0, 0, 0, 154, 255, 255, 255, 0, 0, 0, 1, 20, 0, 0, 0, 48, 0, 0, 0, 3, 0, 0, 0, 0, 0, 0, 2, 68, 0, 0, 0, 228, 254, 255, 255, 8, 0, 0, 0, 16, 0, 0, 0, 1, 0, 0, 0, 0, 0, 0, 0, 0, 0, 0, 0, 1, 0, 0, 0, 147, 70, 32, 56, 26, 0, 0, 0, 115, 101, 113, 117, 101, 110, 116, 105, 97, 108, 95, 49, 47, 100, 101, 110, 115, 101, 95, 49, 95, 50, 47, 65, 100, 100, 0, 0, 1, 0, 0, 0, 1, 0, 0, 0, 0, 0, 22, 0, 28, 0, 24, 0, 23, 0, 16, 0, 12, 0, 8, 0, 0, 0, 0, 0, 0, 0, 7, 0, 22, 0, 0, 0, 0, 0, 0, 1, 24, 0, 0, 0, 24, 0, 0, 0, 2, 0, 0, 0, 0, 0, 0, 2, 80, 0, 0, 0, 4, 0, 4, 0, 4, 0, 0, 0, 62, 0, 0, 0, 115, 101, 113, 117, 101, 110, 116, 105, 97, 108, 95, 49, 47, 103, 108, 111, 98, 97, 108, 95, 97, 118, 101, 114, 97, 103, 101, 95, 112, 111, 111, 108, 105, 110, 103, 50, 100, 95, 49, 47, 77, 101, 97, 110, 47, 114, 101, 100, 117, 99, 116, 105, 111, 110, 95, 105, 110, 100, 105, 99, 101, 115, 0, 0, 1, 0, 0, 0, 2, 0, 0, 0, 0, 0, 22, 0, 32, 0, 28, 0, 27, 0, 20, 0, 16, 0, 12, 0, 0, 0, 0, 0, 8, 0, 7, 0, 22, 0, 0, 0, 0, 0, 0, 1, 24, 0, 0, 0, 52, 0, 0, 0, 84, 0, 0, 0, 1, 0, 0, 0, 0, 0, 0, 9, 108, 0, 0, 0, 4, 0, 0, 0, 255, 255, 255, 255, 48, 0, 0, 0, 48, 0, 0, 0, 3, 0, 0, 0, 12, 0, 12, 0, 0, 0, 0, 0, 8, 0, 4, 0, 12, 0, 0, 0, 8, 0, 0, 0, 20, 0, 0, 0, 1, 0, 0, 0, 128, 255, 255, 255, 255, 255, 255, 255, 0, 0, 0, 0, 1, 0, 0, 0, 129, 128, 128, 59, 29, 0, 0, 0, 115, 101, 114, 118, 105, 110, 103, 95, 100, 101, 102, 97, 117, 108, 116, 95, 105, 110, 112, 117, 116, 95, 108, 97, 121, 101, 114, 58, 48, 0, 0, 0, 4, 0, 0, 0, 1, 0, 0, 0, 48, 0, 0, 0, 48, 0, 0, 0, 3, 0, 0, 0, 5, 0, 0, 0, 96, 0, 0, 0, 64, 0, 0, 0, 44, 0, 0, 0, 24, 0, 0, 0, 4, 0, 0, 0, 192, 255, 255, 255, 14, 0, 0, 0, 2, 0, 0, 0, 0, 0, 0, 14, 208, 255, 255, 255, 9, 0, 0, 0, 4, 0, 0, 0, 0, 0, 0, 9, 224, 255, 255, 255, 40, 0, 0, 0, 2, 0, 0, 0, 0, 0, 0, 40, 240, 255, 255, 255, 17, 0, 0, 0, 2, 0, 0, 0, 0, 0, 0, 17, 12, 0, 16, 0, 15, 0, 0, 0, 8, 0, 4, 0, 12, 0, 0, 0, 3, 0, 0, 0, 3, 0, 0, 0, 0, 0, 0, 3
};
